, 50318
for 3727
and 3516
/ 3004
bag 2452
ready 2253
stock 2217
new 2049
's 2047
style 1942
with 1798
women 1786
shoes 1575
men 1573
of 1461
the 1407
in 1369
case 1156
a 1144
- 1135
summer 1089
korean 1043
cover 984
small 980
baby 978
box 976
s 942
phone 919
casual 895
size 892
leather 888
pants 886
high 875
fashion 874
to 867
-@@ 866
free 863
card 847
large 844
light 825
black 812
car 789
1 769
mens 757
protective 742
x 741
cotton 740
2 739
set 736
white 716
color 692
gift 640
( 639
long 638
) 637
3 634
hair 634
e@@ 633
storage 631
hot 624
sports 615
children 598
waterproof 596
top 594
soft 592
womens 578
d@@ 575
short 571
4 567
5 566
ring 564
clothes 563
mobile 558
g@@ 553
c@@ 549
cat 548
home 547
taiwan 547
version 544
boots 543
sleeve 540
female 536
6 522
y@@ 520
camera 519
portable 518
water 517
autumn 515
on 514
s@@ 512
spring 512
k@@ 511
t-shirt 504
red 499
breathable 495
t@@ 494
re@@ 493
pro 490
suit 490
watch 486
m@@ 485
shirt 485
loose 481
thin 481
shipping 478
accessories 476
mini 474
i 473
ins 473
2022 469
dress 467
o 462
cute 460
outdoor 458
pet 451
oil 446
f@@ 445
super 445
8 444
a@@ 442
b@@ 442
electric 440
glass 439
socks 434
special 434
i@@ 430
x@@ 430
steel 427
air 425
7 422
original 422
h@@ 421
p@@ 419
all-match 416
film 416
r@@ 416
holder 415
one 410
winter 408
lens 407
t 397
full 393
5@@ 391
blue 391
wear 391
. 389
hand 389
strap 389
backpack 383
cable 383
e 383
12 382
v@@ 382
machine 380
sticker 380
️ 376
c 375
can 374
m 374
tea 374
pack 373
| 373
3@@ 372
student 371
+ 370
w@@ 368
silicone 365
travel 365
g 364
japanese 364
cloth 363
food 363
2@@ 360
screen 359
genuine 358
skirt 356
6@@ 355
dog 355
pure 355
apple 354
head 353
cartoon 352
l 352
8@@ 351
shell 351
plus 350
brand 347
stickers 347
~ 347
10 346
4@@ 345
simple 345
w 345
o@@ 344
jacket 343
er 342
n@@ 341
waist 341
by 339
l@@ 339
led 338
table 338
trendy 337
girls 335
pad 333
quality 333
7@@ 331
iphone 331
u@@ 331
no 330
canvas 326
fast 326
protection 326
gold 325
toy 324
ing 323
y 322
fan 320
cleaning 319
double 319
safety 319
shoulder 319
belt 317
bracelet 317
chain 316
j@@ 316
bags 315
sandals 310
sweater 310
bottle 308
powder 307
100 304
nail 303
round 302
' 301
anti-@@ 300
girl 300
mask 300
silver 300
11 299
single 299
d 298
sale 298
type 298
series 297
li@@ 296
retro 296
an@@ 295
usb 295
delivery 293
1@@ 291
se@@ 291
] 290
de@@ 290
ice 290
cream 289
xiaomi 289
stand 288
cup 287
household 287
9 285
key 285
le@@ 284
an 282
big 282
pieces 282
# 281
[ 280
k 280
wireless 280
✨ 279
p 278
9@@ 277
charging 276
z@@ 276
shorts 275
skin 275
u 274
back 273
stainless 273
fashionable 272
toys 272
2021 271
hat 271
ball 270
es 268
suitable 267
universal 264
h 262
max 262
boys 261
silk 261
er@@ 260
japan 260
tool 260
clothing 257
game 257
from 256
vest 255
inch 254
natural 254
up 253
ro@@ 252
thickened 252
10@@ 251
coat 251
frame 251
& 250
in@@ 249
: 248
clip 248
price 248
sexy 248
power 247
body 246
co@@ 246
face 246
protector 245
0@@ 243
pendant 243
solid 243
board 242
computer 241
adult 240
di@@ 240
lo@@ 240
slippers 240
ed 238
handmade 238
neck 238
! 236
day 236
20@@ 235
brush 235
flat 234
cap 233
art 232
foot 232
to@@ 232
buckle 231
hd 231
net 231
wall 231
thick 230
creative 229
crystal 229
* 228
necklace 228
si@@ 228
b 227
lamp 227
male 227
metal 227
at 225
decoration 225
design 225
be 224
shipment 224
all 223
quick 223
stick 223
store 223
❤ 223
green 221
mi@@ 221
al@@ 220
at@@ 220
band 220
diy 220
doll 220
filter 220
gifts 220
mat 220
n 220
slim 220
bluetooth 219
jeans 218
12@@ 217
door 215
control 214
goods 213
ti@@ 213
underwear 213
product 211
r 211
work 211
ar@@ 210
en@@ 210
eye 210
20 209
capacity 208
ers 208
le 208
made 208
mo@@ 208
short-sleeved 208
bed 207
mm 207
transparent 207
un@@ 207
cool 206
print 206
students 206
kids 205
star 205
automatic 204
business 204
rack 204
care 202
laptop 202
cm 201
american 200
handle 200
lace 200
old 200
samsung 200
towel 200
digital 199
side 199
su@@ 199
bo@@ 198
rope 198
book 197
paper 197
classic 196
coffee 196
fish 196
model 196
pro@@ 196
birthday 195
products 195
jewelry 194
wallet 194
pillow 193
stock@@ 193
" 192
30 192
line 192
vintage 192
13 191
flower 191
milk 191
chinese 190
dry 190
hi@@ 190
limited 190
be@@ 189
beauty 189
childrens 189
plate 189
st@@ 189
fitness 188
rice 188
rubber 188
switch 188
hanging 187
edition 186
elastic 186
feed 185
pink 185
square 185
cushion 184
battery 183
se 183
display 182
collar 181
couple 181
folding 181
ne@@ 181
warm 181
as@@ 180
car@@ 180
diamond 180
glasses 180
smart 180
sun 180
tube 180
v 180
low 178
or 178
essential 177
chair 176
me@@ 176
microphone 176
po@@ 176
ri@@ 176
adjustable 175
ation 175
ladies 174
motorcycle 174
night 174
ts 174
office 173
training 173
professional 172
ho@@ 171
two 171
able 170
f 170
fishing 170
q@@ 170
spray 170
sweet 170
time 170
anti-slip 169
sp@@ 169
is 168
2020 167
little 167
running 167
wood 167
% 166
con@@ 166
korea 166
wholesale 166
ab@@ 165
fresh 165
iron 165
plastic 165
cake 164
do@@ 164
heel 164
package 164
pen 164
shop 164
use 164
15@@ 163
ac@@ 163
brown 163
earrings 163
lazy 163
mesh 163
multifunctional 163
not 163
room 163
sunscreen 163
as 162
internet 162
pattern 162
us 162
xs 162
am@@ 161
painting 161
piece 161
14@@ 160
fruit 160
printed 160
replacement 160
bear 159
candy 159
go@@ 159
school 159
ma@@ 158
comfortable 157
knitted 157
same 157
wedding 157
beach 156
buy 156
tote 156
colors 155
material 155
tv 155
wide 155
generation 154
magnetic 154
man 154
50 153
blouse 153
noodles 153
pcs 153
repair 153
support 152
tablet 152
wash 152
yellow 152
bi@@ 151
moisturizing 151
button 150
seat 150
13@@ 149
16@@ 149
pe@@ 149
photo 149
you 149
front 148
gloves 148
snacks 148
toe 148
heart 147
kitchen 147
e-@@ 146
or@@ 146
pearl 146
14 145
ad@@ 145
chest 145
kit 145
leisure 145
love 145
scarf 145
trousers 145
aluminum 144
instant 144
proof 144
soap 144
｜ 144
18@@ 143
cleaner 143
get 143
makeup 143
remote 143
60@@ 142
bar 142
ear 142
gel 142
party 142
plain 142
t-@@ 142
30@@ 141
adapter 141
bottom 141
sleeves 141
ba@@ 140
rod 140
shoe 140
3d 139
european 139
fit 139
versatile 139
xr 139
hooded 138
pc 138
charger 137
house 137
network 137
te@@ 137
toilet 137
trend 137
ai@@ 136
chicken 136
good 136
ni@@ 136
rose 136
stone 136
supplies 135
tank 135
year 135
french 134
ge@@ 134
sauce 134
sh@@ 134
so@@ 134
vi@@ 134
bicycle 133
ch 133
da@@ 133
lock 133
mirror 133
ml 133
non-slip 133
medium 132
real 132
sneakers 132
ur@@ 132
15 131
alloy 131
bracket 131
desktop 131
mouse 131
pads 131
patch 131
video 131
al 130
ap@@ 130
en 130
hard 130
pocket 130
bu@@ 129
ch@@ 129
live 129
magic 129
pot 129
washing 129
android 128
half 128
ipad 128
mi 128
.@@ 127
24@@ 127
bath 127
headset 127
long-sleeved 127
yuan 127
24 126
50@@ 126
denim 126
dual 126
indoor 126
ine 126
les 126
ly 126
premium 126
tempered 126
tools 126
tops 126
25@@ 125
agent 125
embroidered 125
factory 125
flavor 125
meat 125
my 125
two-piece 125
umbrella 125
18 124
40 124
fairy 124
inches 124
no@@ 124
non-@@ 124
dried 123
fabric 123
pin 123
street 123
wheel 123
ar 122
clear 122
collection 122
s-@@ 122
11@@ 121
fragrance 121
gi@@ 121
lotion 121
rear 121
sa@@ 121
spot 121
straight 121
three 121
us@@ 121
z 121
floral 120
it@@ 120
easy 119
wooden 119
anti 118
boy 118
out 118
per 118
shampoo 118
sport 118
du@@ 117
electronic 117
king 117
mar@@ 117
gray 116
ing@@ 116
leg 116
offer 116
touch 116
ated 115
audio 115
colorful 115
four 115
kg 115
luxury 115
pi@@ 115
artifact 114
available 114
es@@ 114
outer 114
popular 114
unisex 114
wax 114
wet 114
40@@ 113
can@@ 113
decorative 113
wire 113
19@@ 112
martin 112
open 112
pa@@ 112
play 112
sole 112
th@@ 112
ang 111
discount 111
fe@@ 111
ic@@ 111
rechargeable 111
sc@@ 111
sleeveless 111
camping 110
embroidery 110
essence 110
less 110
speed 110
suction 110
00@@ 109
compatible 109
cooling 109
el@@ 109
mosquito 109
ornaments 109
★ 109
16 108
deodorant 108
hook 108
inner 108
living 108
om@@ 108
huawei 107
insole 107
lightweight 107
messenger 107
spicy 107
ankle 106
beads 106
bike 106
cabinet 106
dust 106
egg 106
high-end 106
on@@ 106
ate 105
authentic 105
fat 105
layer 105
purse 105
zipper 105
clutch 104
group 104
he@@ 104
latest 104
lu@@ 104
massage 104
plug 104
yi@@ 104
-in 103
finger 103
it 103
ke@@ 103
polo 103
5g 102
bucket 102
cu@@ 102
d-@@ 102
hole 102
hoodie 102
pu 102
2-@@ 101
british 101
christmas 101
cold 101
ment 101
rain 101
shock 101
swimsuit 101
ve@@ 101
youth 101
age 100
ds 100
min@@ 100
my@@ 100
off 100
temperature 100
vacuum 100
college 99
company 99
cr@@ 99
dark 99
glue 99
handbag 99
ko@@ 99
ling 99
sound 99
ultra 99
are 98
clean 98
facial 98
for@@ 98
ji@@ 98
me 98
perfume 98
tr@@ 98
60 97
90@@ 97
air@@ 97
base 97
ex@@ 97
jelly 97
lights 97
paste 97
raincoat 97
sterling 97
strip 97
ve 97
ag@@ 96
chi@@ 96
customized 96
device 96
direct 96
pressure 96
shape 96
slip 96
um 96
used 96
360 95
bathroom 95
cat@@ 95
chocolate 95
de 95
feet 95
ki@@ 95
way 95
without 95
25 94
foldable 94
life 94
lovers 94
micro 94
pouch 94
purchasing 94
rabbit 94
selling 94
1-@@ 93
elegant 93
la@@ 93
redmi 93
removal 93
basketball 92
coin 92
keyboard 92
liquid 92
pajamas 92
resistant 92
young 92
80@@ 91
best 91
celebrity 91
crossbody 91
fake 91
gu@@ 91
niche 91
people 91
pre@@ 91
sm@@ 91
toothbrush 91
17@@ 90
bedroom 90
blanket 90
bow 90
carbon 90
cards 90
cut 90
equipment 90
fo@@ 90
hollow 90
mother 90
mouth 90
-inch 89
200@@ 89
bar@@ 89
building 89
extra 89
hu@@ 89
mu@@ 89
multicolor 89
personality 89
shi@@ 89
yoga 89
beautiful 88
ge 88
golf 88
guitar 88
heels 88
hong 88
jersey 88
speaker 88
ted 88
um@@ 88
3-@@ 87
animal 87
anti-drop 87
block 87
el 87
golden 87
grade 87
kong 87
logo 87
manicure 87
ps 87
snack 87
woven 87
years 87
100@@ 86
dogs 86
down 86
parts 86
roll 86
sea 86
wifi 86
wool 86
cor@@ 85
fi@@ 85
fiber 85
knife 85
ls 85
luggage 85
mount 85
plush 85
sewing 85
80 84
canon 84
floor 84
guard 84
instrument 84
stocks 84
tire 84
ul@@ 84
ant 83
anti-collision 83
br@@ 83
exclusive 83
lucky 83
ns 83
order 83
sofa 83
_ 82
ak@@ 82
disposable 82
li 82
look 82
pen@@ 82
thermal 82
wa@@ 82
21 81
all-inclusive 81
ang@@ 81
ator 81
belly 81
cropped 81
dr@@ 81
second 81
shrimp 81
wind 81
ce@@ 80
corner 80
der 80
desk 80
durable 80
heat 80
man@@ 80
newborn 80
q 80
shower 80
sling 80
south 80
th 80
wristband 80
che@@ 79
cross 79
ding 79
flo@@ 79
hip 79
letter 79
middle 79
tie 79
wing 79
4g 78
au@@ 78
cleansing 78
code 78
driving 78
handsome 78
invisible 78
multi-@@ 78
one-piece 78
per@@ 78
picture 78
pullover 78
remover 78
sun@@ 78
wear-resistant 78
2022@@ 77
arm 77
em@@ 77
family 77
fire 77
nylon 77
oppo 77
personalized 77
purchase 77
ra@@ 77
sho@@ 77
supply 77
wipes 77
auto 76
ci@@ 76
edge 76
first 76
go 76
maternity 76
multi-functional 76
pencil 76
ss@@ 76
sugar 76
temperament 76
turtle 76
whole 76
xl 76
bright 75
dragon 75
football 75
fu@@ 75
hiking 75
malaysia 75
oc@@ 75
official 75
protein 75
soup 75
ta@@ 75
ting 75
class 74
cycling 74
days 74
handheld 74
helmet 74
knit 74
mountain 74
op@@ 74
qu@@ 74
security 74
self-@@ 74
sony 74
str@@ 74
suits 74
tissue 74
v-neck 74
’ 74
co 73
ed@@ 73
elderly 73
har@@ 73
ite 73
ke 73
let 73
level 73
monitor 73
mp@@ 73
only 73
pan@@ 73
plant 73
st 73
strong 73
tri@@ 73
vehicle 73
weight 73
action 72
ber@@ 72
bowl 72
cho@@ 72
deep 72
drink 72
galaxy 72
gaming 72
imported 72
more 72
packaging 72
polish 72
purple 72
sleeping 72
striped 72
sunglasses 72
tag 72
three-@@ 72
velvet 72
23@@ 71
bird 71
charge 71
drop 71
fried 71
gr@@ 71
influencer 71
invoice 71
ji 71
kasut 71
lcd 71
lip 71
ss 71
stretch 71
sunshade 71
uniform 71
value 71
your 71
0 70
24h 70
70 70
acid 70
data 70
fine 70
grey 70
mat@@ 70
music 70
ons 70
plaid 70
sheet 70
ter 70
tt@@ 70
washable 70
western 70
cardigan 69
china 69
cowhide 69
fleece 69
knee 69
ma 69
ornament 69
scooter 69
ste@@ 69
thick-soled 69
tortoise 69
whitening 69
wi@@ 69
window 69
$ 68
35@@ 68
bra 68
cats 68
date 68
disney 68
dryer 68
duck 68
foam 68
fr@@ 68
mon@@ 68
vision 68
wrist 68
yi 68
90 67
alcohol 67
ating 67
ca@@ 67
ck 67
copper 67
dedicated 67
gh@@ 67
heating 67
j 67
length 67
military 67
packs 67
sales 67
sets 67
shirts 67
ster 67
tree 67
ultra-thin 67
ver@@ 67
2019 66
controller 66
daily 66
diaper 66
earphone 66
figure 66
gun 66
health 66
honey 66
ler 66
puzzle 66
shaped 66
straps 66
suitcase 66
wrap 66
xi@@ 66
⭐ 66
4k 65
70@@ 65
da 65
disc 65
fence 65
grass 65
leggings 65
linen 65
mm@@ 65
mug 65
pl@@ 65
printing 65
quilt 65
selfie 65
tee 65
ten@@ 65
tu@@ 65
viral 65
-proof 64
22 64
a-@@ 64
ai 64
child 64
disk 64
ha@@ 64
jo@@ 64
lady 64
maintenance 64
number 64
rings 64
uv 64
we@@ 64
38@@ 63
abstract 63
acrylic 63
anime 63
bean 63
bottoming 63
boutique 63
cosmetic 63
energy 63
high-@@ 63
jumpsuit 63
ll@@ 63
loafers 63
matte 63
navy 63
nike 63
pair 63
pets 63
qi@@ 63
sand 63
sense 63
tail 63
tone 63
ut@@ 63
wei@@ 63
17 62
connector 62
couples 62
cre@@ 62
extension 62
grip 62
lite 62
meal 62
puff 62
slimming 62
son 62
texture 62
tion 62
windproof 62
1080p 61
32 61
als 61
blocks 61
chiffon 61
dance 61
ent 61
g-@@ 61
la 61
ph@@ 61
ru@@ 61
scratch 61
ship 61
sk@@ 61
traditional 61
warranty 61
wild 61
wired 61
yu@@ 61
28@@ 60
5-@@ 60
500@@ 60
angle 60
blo@@ 60
bone 60
candle 60
console 60
gear 60
happy 60
ka 60
korean-style 60
l-@@ 60
moon 60
p-@@ 60
pointed 60
potato 60
pvc 60
raw 60
tiger 60
tripod 60
ty 60
32@@ 59
am 59
breast 59
bur@@ 59
ce 59
cheese 59
cleanser 59
do 59
flip 59
jade 59
ks 59
ku@@ 59
pull 59
riding 59
snow 59
sweat 59
tide 59
y-@@ 59
35 58
66 58
america 58
av@@ 58
cookies 58
decor 58
double-sided 58
general 58
hand@@ 58
herbal 58
insulation 58
lovely 58
manual 58
needle 58
nordic 58
notebook 58
princess 58
quick-drying 58
sh 58
shopping 58
socket 58
ta 58
thread 58
ts@@ 58
xiao@@ 58
6-@@ 57
absorbent 57
baseball 57
boat 57
city 57
drying 57
f-@@ 57
frosted 57
gb 57
gen@@ 57
kindergarten 57
modern 57
ong 57
oz 57
panties 57
player 57
pump 57
sli@@ 57
string 57
surface 57
system 57
ter@@ 57
two-@@ 57
ver 57
yo@@ 57
ze 57
bubble 56
ca 56
ck@@ 56
com@@ 56
den@@ 56
early 56
full-@@ 56
ink 56
je@@ 56
label 56
mini@@ 56
ms 56
multi-function 56
new@@ 56
note 56
nozzle 56
ny 56
over 56
over@@ 56
par@@ 56
pregnant 56
private 56
reflective 56
ren@@ 56
slimmer 56
ty@@ 56
type-c 56
vegetable 56
ya 56
23 55
36@@ 55
a-line 55
arrival 55
bank 55
comb 55
cooking 55
cy@@ 55
flash 55
four-@@ 55
games 55
garden 55
infant 55
ings 55
large-capacity 55
pp@@ 55
recorder 55
standard 55
tape 55
wine 55
200 54
300@@ 54
4-@@ 54
anti-fall 54
area 54
baking 54
basket 54
bell 54
conditioning 54
core 54
exercise 54
fall 54
five 54
hand-@@ 54
heavy 54
heightening 54
host 54
keychain 54
middle-aged 54
pepper 54
pleated 54
smooth 54
sponge 54
sweatshirt 54
tic 54
up@@ 54
woman 54
-free 53
300 53
500 53
65@@ 53
99 53
english 53
et 53
headphones 53
ic 53
ii 53
learning 53
matching 53
ness 53
oxford 53
pe 53
photography 53
point 53
seal 53
suede 53
three-dimensional 53
world 53
and@@ 52
anti@@ 52
bo 52
books 52
boot 52
clo@@ 52
costume 52
craft 52
dormitory 52
funny 52
grain 52
laser 52
nails 52
nintendo 52
non 52
one-@@ 52
optional 52
pu@@ 52
re 52
repellent 52
sensor 52
sleep 52
stockings 52
te 52
vegetarian 52
zer 52
6s 51
925 51
antibacterial 51
ast@@ 51
bamboo 51
bl@@ 51
bread 51
briefs 51
ceramic 51
club 51
et@@ 51
frozen 51
ka@@ 51
medical 51
mil@@ 51
nest 51
nwt 51
orange 51
peach 51
performance 51
pipe 51
refrigerator 51
salt 51
seller 51
send 51
shield 51
slr 51
sto@@ 51
stool 51
tooth 51
trolley 51
uni@@ 51
w-@@ 51
absorption 50
accessory 50
ali@@ 50
applicable 50
aquarium 50
ary 50
black@@ 50
clearance 50
cord 50
custom 50
der@@ 50
dining 50
engine 50
flowers 50
ft 50
garlic 50
headphone 50
intelligent 50
iphone12 50
ju@@ 50
lotus 50
name 50
ping 50
plated 50
projector 50
safe 50
space 50
stereo 50
straw 50
t-shirts 50
titanium 50
triangle 50
wn 50
☆ 50
26@@ 49
55@@ 49
ach@@ 49
adhesive 49
back@@ 49
covers 49
exchange 49
ginger 49
ia 49
lanyard 49
leaf 49
luminous 49
opening 49
organizer 49
paint 49
pd 49
polyester 49
purifier 49
roller 49
solution 49
unlimited 49
valentine 49
1000@@ 48
bedside 48
boxes 48
cal@@ 48
cas@@ 48
clamp 48
cow 48
dy 48
feeling 48
fixed 48
ies 48
lenovo 48
lin@@ 48
ll 48
m-@@ 48
money 48
muscle 48
ne 48
nose 48
promotion 48
seamless 48
strawberry 48
sub@@ 48
tor 48
welcome 48
1.@@ 47
3m 47
ad 47
all-@@ 47
ance 47
ancient 47
bead 47
bel@@ 47
butterfly 47
c-@@ 47
cheap 47
fun 47
great 47
inflatable 47
lin 47
low-@@ 47
medicine 47
ous 47
perfect 47
radio 47
razor 47
release 47
teddy 47
ties 47
45 46
48@@ 46
ao@@ 46
asus 46
background 46
bikini 46
bottles 46
boxer 46
bro@@ 46
charm 46
chili 46
cosplay 46
cutting 46
effect 46
handy 46
high-quality 46
id 46
ko 46
organic 46
pedal 46
pho@@ 46
sesame 46
shipped 46
shockproof 46
so 46
steam 46
sur@@ 46
toddler 46
tray 46
ying 46
.5 45
65 45
bag@@ 45
beef 45
blade 45
bre@@ 45
cage 45
conditioner 45
container 45
degree 45
detachable 45
double-@@ 45
dream 45
end 45
flying 45
fold 45
gro@@ 45
hours 45
ink@@ 45
insoles 45
lipstick 45
litter 45
macbook 45
mark 45
meter 45
mop 45
motor 45
panel 45
pre-order 45
reusable 45
sell 45
sky 45
styles 45
ten 45
ven@@ 45
volume 45
vr 45
wardrobe 45
46 44
alarm 44
ao 44
bio@@ 44
cam@@ 44
char@@ 44
ct 44
drawing 44
educational 44
feeder 44
ff@@ 44
fl@@ 44
focus 44
k-@@ 44
lace-up 44
lingerie 44
ning 44
nursing 44
one-shoulder 44
parrot 44
recommended 44
relief 44
screw 44
song 44
swimming 44
22@@ 43
50ml 43
a7@@ 43
bib 43
bs 43
carry 43
cd 43
commercial 43
convenient 43
dis@@ 43
dish 43
drive 43
famous 43
force 43
gre@@ 43
healthy 43
high-top 43
internal 43
labor 43
lan@@ 43
lelaki 43
lid 43
liner 43
local 43
match 43
nordstrom 43
out@@ 43
pool 43
pop 43
prevention 43
props 43
scale 43
sen@@ 43
sim 43
tai@@ 43
tennis 43
truck 43
vo@@ 43
wo@@ 43
zing 43
2pcs 42
36 42
500ml 42
67 42
75@@ 42
ations 42
ble@@ 42
cab@@ 42
colo@@ 42
colored 42
costco 42
cur@@ 42
dad 42
drain 42
feather 42
feng 42
fil@@ 42
fin@@ 42
formal 42
ger@@ 42
hdmi 42
her@@ 42
honda 42
ical 42
ion 42
kin@@ 42
land 42
lemon 42
locomotive 42
magnet 42
mer@@ 42
mid 42
mixed 42
online 42
os 42
play@@ 42
plum 42
primary 42
road 42
sale@@ 42
ser@@ 42
shelf 42
simulation 42
six 42
sl@@ 42
split 42
star@@ 42
stationery 42
transmission 42
tur@@ 42
v-@@ 42
vertical 42
vivo 42
watches 42
wave 42
ws 42
x-@@ 42
-style 41
100g 41
100ml 41
69 41
adults 41
airpods 41
ana 41
ate@@ 41
ati@@ 41
badminton 41
bb@@ 41
bmw 41
breakfast 41
capsules 41
charcoal 41
clock 41
combination 41
delicious 41
diving 41
drill 41
foreign 41
framed 41
fu 41
ga 41
gs 41
lam@@ 41
lego 41
lunch 41
making 41
mas@@ 41
mp 41
nor@@ 41
outside 41
overalls 41
pan 41
pig 41
prepaid 41
ps4 41
removable 41
rotating 41
self 41
shot 41
sting 41
stop 41
streaming 41
telescopic 41
tro@@ 41
valve 41
ves 41
wide-leg 41
'@@ 40
2018 40
27@@ 40
active 40
album 40
antique 40
ats 40
aw@@ 40
basin 40
bri@@ 40
brushed 40
change 40
ct@@ 40
dc 40
diapers 40
dinosaur 40
ear@@ 40
feeding 40
finished 40
gar@@ 40
gas 40
gauze 40
gown 40
hair@@ 40
in-@@ 40
jia 40
ker 40
laundry 40
lighting 40
ly@@ 40
mei 40
mickey 40
micro@@ 40
multi 40
note@@ 40
removing 40
resin 40
rock 40
satin 40
speci@@ 40
spoon 40
this 40
under@@ 40
ung 40
ure 40
wearable 40
within 40
zz@@ 40
⚡ 40
150 39
28 39
88@@ 39
ant@@ 39
apply 39
attached 39
balm 39
basic 39
biscuits 39
coupon 39
cover@@ 39
cro@@ 39
ded 39
entry 39
fer@@ 39
friends 39
fully 39
han 39
horn 39
international 39
ity 39
lat@@ 39
latex 39
mic 39
minimalist 39
mold 39
mushroom 39
noise 39
od@@ 39
outlet 39
pat@@ 39
port 39
rhinestone 39
ry 39
sco@@ 39
seasons 39
shooting 39
sm 39
suspender 39
taste 39
tho@@ 39
very 39
watchband 39
wh@@ 39
ys 39
0-@@ 38
0.@@ 38
01 38
33 38
50g 38
access 38
acne 38
ain 38
ak 38
ally 38
ans 38
carry-on 38
cctv 38
cen@@ 38
changing 38
cherry 38
clips 38
coconut 38
drawer 38
drawstring 38
emperors 38
ery 38
feel 38
function 38
height 38
hot@@ 38
i7 38
import 38
included 38
induction 38
industrial 38
inter@@ 38
jin 38
ky 38
lee 38
like 38
men@@ 38
modified 38
nutrition 38
oi@@ 38
phones 38
ra 38
racing 38
reduction 38
sanitary 38
scissors 38
section 38
ses 38
teeth 38
tent 38
that 38
toyota 38
water@@ 38
what 38
word 38
-piece 37
.5@@ 37
19 37
2.@@ 37
202@@ 37
7-@@ 37
99@@ 37
ace@@ 37
al-@@ 37
berry 37
brake 37
cap@@ 37
cars 37
cases 37
cc 37
ched 37
cli@@ 37
ering 37
external 37
eyeshadow 37
fa@@ 37
faux 37
fill 37
fre@@ 37
ga@@ 37
grinder 37
head@@ 37
infrared 37
lapel 37
lifting 37
masks 37
mattress 37
modification 37
monster 37
must-have 37
ot 37
pc@@ 37
philips 37
platform 37
poster 37
realme 37
shark 37
skinny 37
sti@@ 37
suit-for-all 37
top@@ 37
tre@@ 37
ur 37
walking 37
yu 37
♥ 37
-shaped 36
05@@ 36
125 36
26 36
304 36
after 36
aid 36
baju 36
beaded 36
bee 36
ben@@ 36
boxing 36
brass 36
clay 36
ction 36
deli@@ 36
don@@ 36
dustproof 36
dye 36
ears 36
end@@ 36
fied 36
forest 36
fox 36
friendly 36
gen 36
hop 36
hp 36
i8 36
ja@@ 36
kitty 36
lab@@ 36
lo 36
mal@@ 36
palm 36
polishing 36
pri@@ 36
qi 36
queen 36
rc 36
re-@@ 36
rise 36
romper 36
salon 36
san@@ 36
schoolbag 36
seed 36
shawl 36
shopee 36
sing 36
solar 36
steamed 36
sticky 36
super@@ 36
tactical 36
tight 36
toothpaste 36
wig 36
zi@@ 36
120@@ 35
1kg 35
30ml 35
37@@ 35
400 35
48 35
500g 35
52@@ 35
8-@@ 35
adidas 35
arch 35
b-@@ 35
balls 35
bao 35
bass 35
biscuit 35
box@@ 35
braided 35
but@@ 35
cer@@ 35
character 35
clipper 35
col@@ 35
collagen 35
eng 35
ethnic 35
ets 35
festival 35
ff 35
german 35
growth 35
ine@@ 35
int@@ 35
iphone11 35
ir@@ 35
joint 35
kettle 35
kid 35
ld@@ 35
lift 35
mix 35
mo 35
most 35
oversized 35
pap@@ 35
ps@@ 35
rainbow 35
rat 35
refreshing 35
retractable 35
ry@@ 35
sheets 35
shoes@@ 35
sw@@ 35
sy@@ 35
team 35
ton 35
usb@@ 35
ut 35
view 35
watch@@ 35
will 35
xi 35
43 34
600@@ 34
all@@ 34
anti-theft 34
aromatherapy 34
ax@@ 34
ba 34
ban@@ 34
beg 34
bul@@ 34
bumper 34
cod 34
combo 34
comp@@ 34
complete 34
crop 34
dri@@ 34
dvd 34
electro@@ 34
ents 34
fitted 34
foundation 34
ful 34
gentle 34
gg@@ 34
gri@@ 34
grinding 34
hamster 34
hand-made 34
hd@@ 34
high-waisted 34
hood 34
ino 34
integrated 34
jin@@ 34
lan 34
lasting 34
legs 34
loss 34
materials 34
mechanical 34
mid-length 34
ming 34
month 34
na 34
nu@@ 34
piano 34
pork 34
reading 34
remove 34
seafood 34
sealing 34
skateboard 34
sleeved 34
snoopy 34
soccer 34
stage 34
sticks 34
tang 34
telephone 34
ters 34
various 34
xbox 34
xin 34
xin@@ 34
yyds 34
-4@@ 33
12v 33
156 33
180@@ 33
31@@ 33
42@@ 33
ada 33
agate 33
assembly 33
ater 33
auto@@ 33
ble 33
bon@@ 33
cell 33
chips 33
coating 33
comprehensive 33
contrast 33
cube 33
cul@@ 33
cylinder 33
dinner 33
dolls 33
ele@@ 33
fly 33
fore@@ 33
formula 33
gate 33
hotel 33
ley 33
massager 33
mb@@ 33
microfiber 33
models 33
national 33
ob@@ 33
pa 33
pack@@ 33
pairs 33
piercing 33
playing 33
points 33
pping 33
protect 33
push 33
que 33
recording 33
seasoning 33
sion 33
slot 33
spe@@ 33
state 33
studio 33
synthetic 33
tofu 33
ultrasonic 33
under 33
unique 33
win@@ 33
x3 33
't 32
14k 32
1pc 32
45@@ 32
75 32
abs 32
acc@@ 32
adi@@ 32
advanced 32
aged 32
ail@@ 32
anti-mosquito 32
beijing 32
camouflage 32
capsule 32
cel@@ 32
chic 32
climbing 32
covering 32
credit 32
ctive 32
eat 32
empty 32
enzyme 32
eyes 32
frequency 32
germany 32
gym 32
hairpin 32
harajuku 32
hy@@ 32
ing-@@ 32
jar 32
latte 32
lavender 32
link 32
lion 32
maker 32
mel@@ 32
meters 32
mountaineering 32
multi@@ 32
nasal 32
nut 32
parent-child 32
patches 32
powerful 32
pper 32
present 32
random 32
royal 32
selected 32
serum 32
si 32
soothing 32
stitching 32
strips 32
tan 32
to-@@ 32
war@@ 32
whey 32
wor@@ 32
working 32
1000 31
31 31
61 31
66@@ 31
68 31
85@@ 31
ani@@ 31
ative 31
boo@@ 31
by@@ 31
cam 31
carrying 31
cle@@ 31
compact 31
cross-body 31
exquisite 31
five-@@ 31
good@@ 31
he 31
high@@ 31
honor 31
ip@@ 31
just 31
len@@ 31
lla 31
memory 31
miss 31
mom 31
mud 31
outing 31
photo@@ 31
plug-in 31
pockets 31
rich 31
root 31
s925 31
sam@@ 31
sand@@ 31
scalp 31
seeds 31
sex 31
shade 31
tablets 31
tassel 31
teaching 31
test 31
thi@@ 31
ton@@ 31
ub@@ 31
ving 31
well 31
worn 31
xiang 31
zhang 31
zircon 31
34 30
35mm 30
62 30
ami 30
amp@@ 30
any 30
arti@@ 30
az@@ 30
baotou 30
beans 30
ber 30
booster 30
built-in 30
bulb 30
carpet 30
carrier 30
circle 30
compression 30
contact 30
correction 30
cri@@ 30
curtain 30
den 30
dji 30
dro@@ 30
dslr 30
eau 30
est 30
flared 30
flavors 30
fun@@ 30
god 30
half-@@ 30
home@@ 30
ig@@ 30
interior 30
iphone13 30
iphone@@ 30
is@@ 30
jing@@ 30
leopard 30
long@@ 30
mah 30
mousse 30
mute 30
nano 30
noodle 30
nude 30
ong@@ 30
optical 30
pad@@ 30
pain 30
peanut 30
place 30
por@@ 30
practical 30
rai@@ 30
rearview 30
ribbon 30
scented 30
shadow 30
sour 30
standing 30
steering 30
story 30
stu@@ 30
stylish 30
tai 30
tattoo 30
telecom 30
tin 30
un 30
underpants 30
university 30
upgraded 30
vip 30
vitamin 30
wan@@ 30
-resistant 29
39 29
39@@ 29
43@@ 29
55 29
800@@ 29
8plus 29
babies 29
balance 29
bra@@ 29
buddha 29
canned 29
ceiling 29
ches 29
chin@@ 29
coach 29
cra@@ 29
crispy 29
cti@@ 29
customization 29
dam@@ 29
decorations 29
dell 29
di 29
elbow 29
eos 29
era 29
flag 29
fortune 29
glitter 29
halloween 29
holiday 29
homemade 29
hose 29
hydrating 29
ie 29
inside 29
key@@ 29
license 29
many 29
mer 29
ml@@ 29
multi-purpose 29
need 29
new-style 29
north 29
nourishing 29
now 29
off@@ 29
other 29
outfit 29
press 29
ps5 29
quartz 29
ram 29
rest 29
restaurant 29
shi 29
single-@@ 29
slim-fit 29
soil 29
stiletto 29
swing 29
tableware 29
take 29
thailand 29
tis 29
tive 29
tpu 29
track 29
treats 29
true 29
tshirt 29
vinyl 29
voice 29
ware 29
water-@@ 29
whi@@ 29
wolf 29
ye@@ 29
ze@@ 29
， 29
10ml 28
110@@ 28
200g 28
2s 28
42 28
72@@ 28
9-@@ 28
95 28
; 28
amplifier 28
ard 28
barbecue 28
bun 28
cakes 28
calcium 28
camisole 28
cans 28
cer 28
chan@@ 28
comm@@ 28
construction 28
converter 28
coral 28
cordless 28
cut@@ 28
drum 28
earring 28
element 28
eng@@ 28
est@@ 28
eva 28
fans 28
fe 28
field 28
flashlight 28
fog 28
furniture 28
gopro 28
graduation 28
gt 28
hanger 28
hardware 28
horse 28
jigsaw 28
jogging 28
juice 28
lac@@ 28
len 28
long-@@ 28
long-lasting 28
lus 28
make 28
marvel 28
mint 28
modeling 28
multiple 28
n-@@ 28
on-@@ 28
painted 28
parking 28
peripheral 28
picnic 28
pol@@ 28
ren 28
resistance 28
ric@@ 28
right 28
ron 28
sal@@ 28
sat@@ 28
sp 28
starbucks 28
stepping 28
stitch 28
sty@@ 28
su 28
technology 28
times 28
today 28
united 28
upgrade 28
vel@@ 28
wash@@ 28
wheels 28
zu@@ 28
27 27
41 27
7-11 27
absorbing 27
ac 27
ach 27
ack 27
af@@ 27
ah 27
aqu@@ 27
artificial 27
away 27
band@@ 27
bbq 27
bit 27
bracelets 27
ces 27
cocoa 27
colour 27
concealer 27
country 27
del@@ 27
des 27
dual-purpose 27
duty 27
eg@@ 27
ens 27
extended 27
far@@ 27
felt 27
fitting 27
flow 27
frames 27
glow 27
grid 27
ham@@ 27
han@@ 27
handlebar 27
harem 27
heater 27
high-speed 27
human 27
insulated 27
italian 27
its 27
jackets 27
jean 27
ker@@ 27
ki 27
lar@@ 27
lowest 27
mac@@ 27
marble 27
mit 27
months 27
nan@@ 27
ner 27
ors 27
packed 27
packing 27
panda 27
pick 27
pin@@ 27
pineapple 27
practice 27
printer 27
quest 27
receiver 27
season 27
shaver 27
six-@@ 27
sizes 27
squ@@ 27
stay 27
stri@@ 27
styling 27
thai 27
third 27
throw 27
tom@@ 27
tra@@ 27
treatment 27
types 27
wedges 27
yang 27
zoom 27
21@@ 26
250ml 26
30g 26
5ml 26
600 26
87@@ 26
ank@@ 26
ari@@ 26
bai@@ 26
bao@@ 26
bat@@ 26
bb 26
boun@@ 26
bride 26
brightening 26
cast 26
cing 26
condition 26
connection 26
counter 26
curved 26
daisy 26
dar@@ 26
decal 26
deer 26
dire@@ 26
drinking 26
dual-use 26
education 26
evening 26
extract 26
fan@@ 26
file 26
ford 26
fragrant 26
fujifilm 26
gauge 26
geometric 26
goggles 26
graphic 26
ground 26
gt@@ 26
guaranteed 26
have 26
hot-selling 26
humidifier 26
industries 26
installation 26
ip 26
ironing 26
items 26
ladder 26
landscape 26
last 26
le-@@ 26
mad@@ 26
main 26
map 26
minutes 26
ng 26
no-@@ 26
odor 26
op 26
ore 26
pikachu 26
post@@ 26
reno@@ 26
sealed 26
second-hand 26
shaping 26
shredder@@ 26
sis 26
site 26
skipping 26
slip-on 26
soy 26
sportswear 26
stupell 26
supplement 26
thing 26
tran@@ 26
uk 26
ultra-@@ 26
use@@ 26
va 26
webcam 26
zi 26
22mm 25
250 25
38 25
400@@ 25
47@@ 25
900@@ 25
almond 25
art@@ 25
ase 25
ath@@ 25
bars 25
book@@ 25
bor@@ 25
call 25
cart 25
cereal 25
certificate 25
chanel 25
chopsticks 25
clar@@ 25
compartment 25
con 25
cooker 25
cp 25
cp@@ 25
crib 25
cross-border 25
cutter 25
diagonal 25
dial 25
dou@@ 25
dre@@ 25
drip 25
ds@@ 25
dual-@@ 25
earth 25
eating 25
epidemic 25
false 25
fits 25
flour 25
fri@@ 25
ger 25
gy@@ 25
hello 25
high-definition 25
hip-hop 25
ial 25
imitation 25
ins@@ 25
interface 25
ios 25
jk 25
kan@@ 25
leaves 25
lined 25
lux 25
mary 25
master 25
miracle 25
motion 25
musical 25
nfc 25
nic@@ 25
offer@@ 25
palette 25
park 25
perempuan 25
poco 25
pole 25
pre-@@ 25
product@@ 25
pul@@ 25
robot 25
router 25
row 25
saving 25
service 25
sha@@ 25
show 25
slices 25
sn@@ 25
sock 25
specialty 25
spi@@ 25
stor@@ 25
stress 25
than 25
timing 25
tor@@ 25
tte 25
unit 25
va@@ 25
ved 25
waistcoat 25
wall-mounted 25
wel@@ 25
wheat 25
yamaha 25
you@@ 25
zhi@@ 25
✿ 25
00 24
08@@ 24
11pro 24
120 24
2.5@@ 24
24-in 24
3c 24
4.@@ 24
700@@ 24
ages 24
ail 24
aircraft 24
all-in-one 24
backless 24
baked 24
banana 24
bathing 24
bed@@ 24
blossom 24
bt@@ 24
bundle 24
buying 24
cape 24
cargo 24
ced 24
certified 24
chip 24
clavicle 24
claw 24
color-@@ 24
compress 24
ctor 24
dc@@ 24
distressed 24
distro 24
dot 24
dra@@ 24
east 24
eight 24
ep@@ 24
ey@@ 24
eyebrow 24
fi 24
gging 24
gra@@ 24
halter 24
hel@@ 24
high-heeled 24
high-waist 24
hijab 24
hu 24
hydr@@ 24
insert 24
kinds 24
ld 24
leash 24
lli@@ 24
lover 24
market 24
mei@@ 24
mid-@@ 24
mid-tube 24
mist 24
ms@@ 24
nightdress 24
nikon 24
nuts 24
oculus 24
oh@@ 24
padded 24
pal@@ 24
panasonic 24
pant 24
part 24
pas@@ 24
pic@@ 24
plan@@ 24
probiotics 24
reptile 24
rh@@ 24
rocker 24
s. 24
sed 24
self-adhesive 24
shu@@ 24
sided 24
slo@@ 24
smo@@ 24
starry 24
subwoofer 24
sweaters 24
sy 24
sz 24
tags 24
ticket 24
trimmer 24
tumbler 24
ture 24
turtleneck 24
ure@@ 24
ute 24
wal@@ 24
web 24
wedge 24
wr@@ 24
wrapping 24
writing 24
x1 24
zip 24
✅ 24
✔ 24
2000 23
2000@@ 23
2nd 23
58@@ 23
5s 23
6i 23
98@@ 23
9t 23
a42 23
angel 23
animals 23
arrivals 23
ata 23
baby@@ 23
bacteria 23
banquet 23
bear@@ 23
blue@@ 23
body@@ 23
both 23
brick 23
butter 23
cali@@ 23
catcher 23
clippers 23
cloud 23
clu@@ 23
comfort 23
cone 23
corn 23
cosmetics 23
crafts 23
crisp 23
cy 23
dead 23
dental 23
detector 23
dew 23
difference 23
dome 23
don 23
earphones 23
f3 23
faucet 23
feng@@ 23
fication 23
flavour 23
foot@@ 23
frog 23
full-screen 23
fur 23
gh 23
gn@@ 23
gourd 23
gradient 23
grams 23
guarantee 23
h-@@ 23
headband 23
hoop 23
hua 23
hum@@ 23
i11 23
ingredients 23
irregular 23
jack 23
kits 23
knitting 23
lamb 23
light@@ 23
m3 23
mb 23
ments 23
mg 23
moisture 23
multifunction 23
ng@@ 23
ocean 23
onal 23
oral 23
outerwear 23
pacifier 23
paintings 23
password 23
physical 23
plants 23
pr@@ 23
preferred 23
ramen 23
robe 23
sapphire 23
separation 23
shan 23
sheep 23
sin@@ 23
snake 23
sprayer 23
squid 23
step 23
sters 23
sts 23
swe@@ 23
swiss 23
tendon 23
therapy 23
thicken 23
thumb 23
wa 23
ward 23
warning 23
washed 23
wat@@ 23
wiping 23
works 23
xiao 23
xxl 23
yue 23
zed 23
,@@ 22
10pcs 22
110 22
12pro 22
1m 22
250g 22
3.@@ 22
33@@ 22
44 22
46@@ 22
6.@@ 22
a31 22
a71 22
about 22
ack@@ 22
act 22
ander 22
anniversary 22
anti-scratch 22
apron 22
bas@@ 22
beige 22
bic 22
bin@@ 22
bite 22
brand-new 22
chang@@ 22
channel 22
cher 22
ching 22
cl@@ 22
colle@@ 22
combat 22
coo@@ 22
cooler 22
dd@@ 22
designer 22
desire 22
diffuser 22
dispenser 22
dom@@ 22
duo 22
dust-proof 22
eagle 22
ell 22
els 22
ence 22
envelope 22
evil 22
farm 22
fen@@ 22
fish@@ 22
fit@@ 22
fresh@@ 22
gam@@ 22
gm 22
hai@@ 22
hidden 22
hor@@ 22
in-ear 22
ini@@ 22
italy 22
jane 22
kar@@ 22
kn@@ 22
knot 22
konjac 22
ku 22
landline 22
layers 22
letters 22
lighter 22
lines 22
lining 22
loafer 22
max@@ 22
mic@@ 22
mijia 22
minnie 22
modal 22
motor@@ 22
moving 22
mulberry 22
multi-color 22
navigation 22
neck@@ 22
one-step 22
pastry 22
patchwork 22
playboy 22
pon@@ 22
pp 22
quote 22
ray 22
recommendation 22
red@@ 22
repairing 22
rs 22
rug 22
saliva 22
shading 22
shatter-resistant 22
shing 22
sign 22
silent 22
sold 22
sor@@ 22
station 22
ster@@ 22
stored 22
stripe 22
tarot 22
thermos 22
thickening 22
tial 22
tion@@ 22
tle 22
total 22
treasure 22
upper 22
ura 22
usa 22
vegan 22
vlog 22
wang 22
wearing 22
wei 22
wen@@ 22
wit@@ 22
wu 22
xl@@ 22
ye 22
yo 22
za 22
zh@@ 22
‼ 22
▪ 22
＊ 22
／ 22
02 21
060@@ 21
20g 21
20mm 21
29 21
29@@ 21
3.5mm 21
300g 21
45mm 21
64 21
72 21
78@@ 21
@ 21
amber 21
amp 21
anchor 21
any@@ 21
army 21
aroma 21
ash 21
automobile 21
bal@@ 21
bangs 21
beginner 21
beginners 21
blackberry 21
blind 21
bun@@ 21
caps 21
chi 21
cin@@ 21
commuter 21
cookie 21
cups 21
day@@ 21
dl@@ 21
dr 21
dresses 21
dressing 21
driver 21
dry@@ 21
eu@@ 21
exfoliating 21
firming 21
flexible 21
floss 21
gger 21
ght 21
hal@@ 21
hands 21
hang 21
hold 21
holes 21
hua@@ 21
hub 21
ian 21
increase 21
ked 21
lap@@ 21
league 21
left 21
legged 21
lte 21
m2 21
main@@ 21
mall 21
med 21
mit@@ 21
mr@@ 21
multi-layer 21
multi-pocket 21
necessary 21
nia 21
nine 21
one@@ 21
ory 21
peace 21
peas 21
pill 21
pins 21
polaroid 21
police 21
post 21
prayer 21
prevent 21
punching 21
punk 21
puree 21
que@@ 21
ring@@ 21
see 21
sheng 21
shiba 21
soft@@ 21
son@@ 21
spir@@ 21
steamer 21
stro@@ 21
telekung 21
there 21
tin@@ 21
trans@@ 21
transfer 21
tropical 21
ultra-light 21
urs 21
vibration 21
vo 21
wang@@ 21
washer 21
waxing 21
wu@@ 21
xia@@ 21
xing 21
yarn 21
zero 21
❗ 21
03 20
12mm 20
150@@ 20
15ml 20
16-in 20
200ml 20
24-@@ 20
4-in 20
49@@ 20
611 20
80g 20
a51 20
aa 20
absorber 20
ace 20
adjustment 20
ah@@ 20
aki 20
australia 20
automotive 20
backpacks 20
bandai 20
bay 20
buttons 20
card@@ 20
cd@@ 20
cheapest 20
chef 20
clas@@ 20
cm@@ 20
coats 20
color@@ 20
cranberry 20
cub@@ 20
culture 20
decompression 20
dessert 20
diameter 20
dice 20
dior 20
disassembly 20
disinfection 20
domestic 20
double-layer 20
dyson 20
each 20
eco-friendly 20
eggs 20
enhanced 20
erotic 20
exhaust 20
eyelash 20
fancy 20
fang 20
filling 20
flip-flops 20
foil 20
free@@ 20
fruits 20
functional 20
fy 20
gang 20
gi 20
glo@@ 20
going 20
grab 20
gram 20
gran@@ 20
greatbigcanvas 20
halal 20
hall 20
hanfu 20
hard@@ 20
hats 20
heel@@ 20
homewear 20
horizontal 20
if 20
iii 20
il@@ 20
insect 20
ipad@@ 20
jam 20
junior 20
kai@@ 20
keeping 20
king@@ 20
kite 20
late 20
lett@@ 20
lg 20
lling 20
matcha 20
mee 20
mes 20
microscope 20
miniature 20
mirrorless 20
mode 20
mon 20
mor@@ 20
muslimah 20
no.@@ 20
note10 20
novel 20
olive 20
oversize 20
pickup 20
pit@@ 20
preservation 20
range 20
reverse 20
rgb 20
ribbed 20
ro 20
rotatable 20
sa 20
sandal 20
science 20
scoop 20
scre@@ 20
se2 20
selection 20
semi-@@ 20
setting 20
seven 20
shit 20
shu 20
sin 20
sink 20
sion@@ 20
sive 20
skirts 20
slide 20
slit 20
spo@@ 20
spot@@ 20
static 20
stick@@ 20
sto 20
stroller 20
sweatpants 20
tam@@ 20
tap@@ 20
temptation 20
tender 20
the@@ 20
thousand 20
towels 20
ue 20
ust@@ 20
val@@ 20
vegetables 20
velcro 20
vio@@ 20
we 20
wipe 20
wiper 20
women@@ 20
zen@@ 20
zone 20
™ 20
❣ 20
-up 19
.5-in 19
05 19
madeupword0000 0
madeupword0001 0
madeupword0002 0
madeupword0003 0
